0000226F FFFFF6AC 00000F74 FFFFFCBD 00001298 FFFFDF26 FFFFEA9A FFFFE6BE FFFFC9ED FFFFFD9D 00002770 FFFFD74A FFFFCCE5 00003532 FFFFE552 FFFFDF4F FFFFDF1C 00001042 00001D23 000022BD FFFFF7CC 00000ABF 000006A3 FFFFDE56 FFFFF2F7 000005C0 00000B02 FFFFCAC8 00001E4B 00002F78 00002193 FFFFFC56 FFFFD8DE 00000080 00002051 00003B13 FFFFE829 FFFFDA72 FFFFE741 0000057E 000015DA 0000095C FFFFFD30 0000318A 00002DB9 00000735 FFFFF467 FFFFDCFE
FFFFF165 000015A3 FFFFDC11 FFFFEA9A 000023DF 00001D32 FFFFF16D 000029F9 00003729 FFFFEA78 0000062F 00001A2E 0000328F FFFFF810 00000AB3 00002ADB FFFFE5AC 0000098A 000034A8 FFFFE621 FFFFF8B9 000004E4 FFFFFC33 00005677 FFFFED75 FFFFE80E 00002486 00003AD7 FFFFF312 000021A1 00000E8C 00004091 000004B4 FFFFF98B FFFFDFC4 0000098A FFFFAFDA FFFFA846 FFFFE04B FFFFAFCA FFFFC934 0000028E FFFFED1A 00000701 FFFFD2C9 FFFFE832 000006F6 000013EF
000016A5 FFFFF26D 00001546 FFFFF815 00003367 000017B0 00000285 000011B6 00003D9E 0000093E 00002A07 000017CC FFFFEAC5 FFFFF50D 00000E14 00003F31 000003C3 00002D37 00003A35 00003869 FFFFDB95 FFFFC09D FFFFC95E FFFFBE11 FFFFDC00 FFFFC280 FFFFC5E6 FFFFF853 00001CA3 000030E9 0000489C 000011F4 000025B0 0000104B FFFFF498 FFFFFAE6 FFFFD7E9 FFFFE733 FFFFDA81 00002C17 FFFFDD61 00000A28 0000108F 000031A5 00002D35 FFFFE387 FFFFFE08 00002383
FFFFE831 00001644 0000052B 000013DA 00000827 0000102D FFFFFD3E 00001813 00002A62 FFFFDDBD FFFFFFF0 00001DA4 00004BD4 00003209 FFFFFC65 FFFFF258 00000406 00002D1A 0000054D 00001383 FFFFF2C3 FFFF9404 FFFFAA82 0000296D FFFFF010 FFFFC83C 00001A39 000008BE FFFFFDAB FFFFC901 FFFFB5A5 FFFFB153 0000120B 000009D2 FFFFFAB9 FFFFF514 000028E9 00000058 FFFFF803 FFFFFDE4 FFFFF029 000049BA 0000397B 0000035D 0000345C FFFFF4EB 00000D5A 00000072
FFFFFEFE FFFFC830 000004C5 FFFFB8E3 00000FE6 FFFFECB7 0000100E FFFFCB46 FFFFF08D 00002324 FFFFF1EB FFFFCDD5 00000456 FFFFE3D4 000003FB FFFFDFE6 000018EA 0000135A FFFFEFAE FFFFB6D0 0000001F 000008B9 00003B76 00001AE9 00000BA7 00003204 00001961 00004696 00001051 0000121D FFFFC968 00003D13 00001EC6 FFFFDE22 FFFFE56C FFFFF780 00004CB6 0000240C 000000B7 000057CE 000002F2 FFFFE0B8 FFFFD16F 000015E0 FFFFABA2 FFFFEEDE 00000C89 FFFFF273
FFFFEB4E 00000303 000016FE 000002D0 00000631 FFFFE52A 00001A3A 00001DB6 00002FB6 FFFFF74F 00000BB7 000054D9 000058B9 00001EBF FFFFF45B 00002457 FFFFE934 FFFFE759 FFFFDD61 FFFFCF2D 00000244 00003FCA 00001FA0 FFFFDCB6 FFFFE48E 0000022E 00003F15 FFFFD7F2 FFFFE28E FFFFE8E8 FFFFDCC5 FFFFC548 FFFFF1B9 00001AAA 0000376B 0000083E 00000C81 FFFFF0F9 00001680 FFFFA85B 00001FE8 000013D7 00001256 FFFFD916 00001E07 000002DF FFFFEDFB FFFFF078
FFFFDD48 FFFFEE44 FFFFE485 FFFFCF07 0000113F FFFFD24C 00001E75 00006A18 FFFFBA2F FFFFD8E0 00004987 FFFFF6AD FFFFD373 00000391 FFFFF7D2 00000381 FFFFF9DB 00001E20 FFFFE05F FFFFDEEA 0000207D 00000536 000040E1 FFFFEF1D FFFFF148 00000672 FFFFEC6A FFFFFC01 000010C1 000032BC 0000485B 00001008 FFFFBA0F FFFFC70F FFFFEA3D 00004002 FFFFED88 FFFFE8D1 000012A4 FFFFED3B 00004653 000023C6 00003D22 000011AC FFFFECC8 00001147 FFFFE07D FFFFDA47
0000632F 00004DF5 0000440A 00001E8E 000036C0 000008EA FFFFF94E 000000E1 00002846 00003107 00002B35 00001A73 00000010 FFFFD285 FFFFD4BE FFFFE407 00001BF2 00000DEA 00001DA8 FFFFF93B FFFFF8B5 000008E6 FFFFDC5C 00000182 FFFFF3D2 0000029D FFFFEBAF 000016BB 00001290 FFFFF320 FFFFEA2C 0000313E FFFFF06B FFFFEC55 FFFFFD91 FFFFFC55 FFFFD40B FFFFBF0F FFFFF61E 0000168F FFFFBFE4 FFFFE520 FFFFC304 000002F4 FFFFD228 000013DD FFFFDFAF FFFFCC81
FFFFD0E5 FFFFF7F1 FFFFEB9C 00001FD1 FFFFD7B5 000011E2 FFFFE372 FFFFFF24 00003436 FFFFD9EC FFFFEFF9 FFFFFFD1 FFFFCEF4 FFFFD4BB FFFFDB8E 00001EA2 000003AF FFFFEA0E FFFFF11B 0000002D 00001D5E 0000331E FFFFFE94 FFFFD6CA FFFFFE8A FFFFE077 FFFFF6C8 00000619 00000A3E 000021F9 00001EE0 FFFFB96C 00002DE7 000032E9 FFFFFE5E FFFFF791 0000264D 00002B49 000010DE FFFFE80D FFFFD0EE FFFFFE88 000027CE FFFFEAF2 0000534A 00003327 00001443 00000ACC
FFFFF80B FFFFDAEB 0000242C 00002D2D FFFFB499 000010BA FFFFDE13 FFFFFDD9 FFFFEFEB 00002920 FFFFF440 FFFFB1BD 00001472 00001084 00000DC5 00000726 FFFFFFA4 FFFFD92B FFFFF029 0000211A FFFFF7DC 00000407 00002298 FFFFF5C5 00001874 00002B00 FFFFED8E 00002540 FFFFFFF4 FFFFDA9B FFFFB18F FFFFF403 000009AC 00002AD4 00000788 FFFFD6A5 00007265 FFFFFF0B 000018C4 FFFFE23A 00000D80 FFFFDDB7 FFFFC960 FFFFF01B FFFFE72D FFFFEB67 FFFFECAE 00001CD9
